3FE03CFFD
30103FFBE
000FC0E82
37BF43042
0B9FFCFC0
17EFBCFBD
0C1F81EBE
03E00403B
33907E0BB
17C002003
082E7B080
2C1F3E143
17F005F04
10203EFFC
34507903B
183FFDF04
139F3F03A
0431BFF05
345F82EFE
3C0F0107E
07DF7D0C0
344EFD000
03FEFBF83
304F7BEC0
340F85FF9
344F40F03
000004F3F
00503F07F
300FC20C6
1FE002E7F
041F01F7A
3BD13EFFD
03D03F1BD
3BDF40001
3450BF1BB
340FFEEC2
03B001040
087E81F41
27DF4317D
341F44EC3
1BD081181
143184005
379FC2EC4
37EFBCF7E
080100F47
