2C003E0FEF40000
04214103F13FF81
082FBD002004FFF
380F0304507F13E
3420FD0C1082FC0
03EFFD101EFEFFD
344FC20810BE0C1
002000001042F82
10003F003FC3140
04203F042004042
3830FF041001FC4
3BDF41F7E03FF3E
07EFFF10003E042
0BE043EC5FC1083
342FBEFBF07D0FE
000F7BFFFF7C042
1010010FDF4303D
33E080FC20FFFC1
0FFF420FFF44FBE
04007EF8203C040
3440BF0C2FBD000
07F0410C3F05084
0820800BEFBE17E
002080F0100407F
17CF41041FBB004
30103F041F42F81
04103D0BFF7DF04
03FFFF084F82F7E
1010FB00007FF81
083FC0F41081FBF
2FF13E00313F13F
33CFBFF02F41FFB
0C30C1F00142F42
3BF08004308203C
3420C1F04080F7F
041FFE0C107D103
2FF00100207F081
0410C20C0F7E043
07D0BEFBEF03002
07EFFC0030420BF
04103E0FE000083
3BBF7FFBFFC10C0
0BEFBDF81FC2F7E
3FF0BF10004107F
3BEF40FFFEC2FBE
3820C008003FF44
03C1040BF0FF081
000083001FC1FBD
041F7FF81042FBF
3C10C0F3F07FF7D
