2C7F80043
3070C1103
37F0BD07F
33FF02F81
306EBEFC0
041083F3C
041103FBD
08117D0FD
081EC1FC3
07F083F82
0C208307E
305FFEF44
0000BC002
041FC2180
0410FE040
083EC0103
07E0C2F7D
2FF082FC1
004046E84
041003145
045FBD1BD
07EE82FC2
17BFBB007
3FD145F42
07CF45002
2FEEBE07B
0C01040FA
37F046FBD
3BE13FF3E
3450410C2
0BF07DF41
081F04040
3030C207E
045040FC2
3FA0C207C
1FD03EFC1
001F84FC0
381047082
3BEF85FFB
380E7EFFC
0BF044104
081EFD183
382004105
001000F3F
3C50860C0
03C03A080
179F01F3C
0C10C007C
1BF000F41
0C4F040C2
37C002083
3030FFF7E
304000FC0
000005FBE
