100000108003F000000
000003F00004104003F
0081040FBFFC0FFF041
7FC000004104103F07F
704107F04007FFC103F
6FC200007F000FFF000
2FC1081FFF03F001001
100003F07F07E03F07F
007E00103F001040040
0001080FFFFC1042000
0FFF07F03F041001FC0
0041042FC0001FC0F81
7FC0040FC1000FFE001
7FC000003F001040000
7040FFF000002001080
0000001F8007F03F041
7000FC0FC0FFF000041
703FFC000003FFC0FC0
1FBF041F8100004107F
0000FFFFC1000FC107F
00BE001FC0040001081
704000004003E03F000
003F03FFC0041FC1FC0
1FC103F001000FC1FBF
703F03F0BFF8003E000
0FC0040001001002000
004107E07FFC0040000
707E002041040040001
1040000FC0FC007F000
1001042F8000107F000
000104003F041FC2040
0FFFFC1040001FFF040
0FC003FFFFFC1000FFF
0FC003FFC004000107F
0041FC0000F8100003F
7000FC203F041FC0001
707F041040040002FFF
0FFE00000000000203F
0FC1FC1040FC100103F
004103F03F04107F000
7FC103FFC00BE04107F
000200008103F000001
0000080000001FFF000
0001000FC1F81080040
7FC000103FFC10810BF
10000010410BF03F03F
008007FFFF03FFBF040
0FC100103F03F07F03F
0000000000000FC0001
0000FC1FC1FFEFC003F
0FC1000FFE001041FC1
1FC0FC007F07FFFF07F
