1420FAF41
2FD086F7E
0BF13FF02
0BEF8007D
13D042001
081FFBF81
386144139
344142FC6
3C4EC113F
37FF83101
345F82139
17BFC303A
0FAEFEE7B
07FFC2EBF
2C2FFEFFD
37BF411C1
005F40F43
300FF9FFB
0FE184F02
0C1EC3EC5
0C2F830BD
1BC07A007
00110707E
13F003EBE
07CFFF03D
007F80FFE
3BE17FF03
07FFC1F3E
3BFF00000
3FE0BF0FC
0C0083002
07FEC4080
37D0FA07D
080FBDEBE
0FA13D0C2
046080F7C
07E0FF13E
3C0106FBB
2401031BF
3C4F7B144
382044002
104F42FC4
3FD03E0FF
07E0841FC
33C18203E
041FC6F04
04113FF83
33E03D047
33FF3FEC2
3010C1EFD
000080F3C
0C3FC0040
07AF7BFC2
2C2104F80
