107E07B
E042F41
F03FF02
1FFFFC1
20040BE
EF82FC5
003F0BB
5F82FC5
E13FF40
0FFEF7E
308107F
4FC1081
C00013D
FFBD082
D041F01
20BEFFD
00010BE
403EFBF
FFFF0FC
2040FBB
0FFFF40
C03F002
F03FFFF
100503D
20800BB
203F0BC
4F02040
3002FC5
113F081
0F42F7E
F13F03F
F07EF7F
F0C3084
0041140
1F40041
0FFDF82
B100FC1
EFBC041
20020BF
F03EFFE
0F81FFE
0F82002
3FFD081
1F43FBF
0FC103F
EF00FBF
EF8117E
1FFEFC0
1F7D043
D002082
FFC30C3
DFFFF80
1080FBF
DFC307E
F0BDF40
EFFE0FF
0080103
DF41FC1
F041FBF
0F83F83
F03F100
DF3F0C2
EFC10BC
F0FFF80
00830BD
2040FC0
1081F3F
20400BF
0F80EC2
EF7DFFD
1FC30BD
D07E03E
F0C1FC5
1F82FFE
10C20FF
3000F81
20C2143
000013F
00430BB
203DFC1
F03D07D
2F3FFBE
10FF003
CFC3001
F07D041
E00103C
2FC4F81
E0BFFC3
0FC1FC1
DEC0F3E
300203E
00C3FBF
F07F07F
100003D
103EFC2
4F40081
1EC1F41
FF3E0C1
0FC1101
0FC3141
