1FC0000FC103FFFF000
0001041000FC007F001
107FFC1FC1000FC1FFF
004003F00004003FFC2
0FC1FFFFFF04107FFC0
7002FC0FFF04000107F
0FC1040FC0001FC1FC0
1FC0001001FC1FC003F
2000000080FC104003F
7040FC1000041FFF000
0FC0FC0000040FC0040
007E04007E03F00003F
0000FC0001FFFFC1041
703F07EFFF04107F000
003F07F001FFF041042
0000F8003F03FFC007F
003F03F001040041FFF
107FFC100103F040FC0
0F81FFF000000FC107F
1FFE04108007F0000BF
7040FC0040001001041
7000001000000000FC0
0FFF03F07F001001000
004103FFFF04007FFFF
704107FFC000004003F
1FFF03F00000103FFFE
1000FC0001001FFF080
1FFF07E000FC1FFFFC0
0041000FC0041001FC0
7FC1001040001000000
0FC0FC0000FFF000000
0000FC103F000000000
003F07F000FFF000FC1
7040001000FC1040000
1000041FC10BF001000
7FFFFC1000FC1FFFFFE
0041041FC0FC1040F80
7FC0041FC0000001FFF
0FFEFC0001000FFF03F
7040FC0FFF00104007F
7FC0FFF03F002000001
007F040041001000000
0FFF001040000001FC1
0FC1FC1001F80041000
004000203F04007F041
703F04107F03F000001
0FC1000FC1FC0FC0FC1
1000000FC004007F040
003F04007F040FC0041
104100003FFC0FC0001
0041000FC0FC00BFFC1
000103E000001041040
0041F80000F8007F03F
0FC0082FC004103F03F
6FC0040FC104100107F
0000FC1FC100104003F
104204000000104103F
1FC003F002FC1FC003F
0000041FC0FFF03F000
100104107F040041000
0041002FBF000FC003F
1000001FC1FC103E000
0001040FC0041040042
7000000FC0FC003F041
704003FFC0040FC0FC1
