5083FBF
01C00FE
0083F3C
0F430BF
F0C1F03
D105101
61410FE
10C3101
EF4313A
4FBB17C
E100083
50BE041
21BEFC0
EEC10C0
50C40BB
EFBD0C5
D045FBF
EFC10C2
1EBEF7B
F17C1C2
1FFBF40
60BE0BB
BFC1001
DF81FBD
C17DF3D
6100F81
0EFD07B
EF7FF00
4EFE042
F042002
103E005
D07EFC6
5F440C6
FF4307E
E04513C
103D180
F03CF40
D18417D
4006FC4
1FFC07F
F00507B
C000042
CFC1002
1FBF03F
E0030C3
AFC1F02
20FDE82
0006F3E
E0FF17D
E03CFB9
CEC1041
E104144
20410BE
5FC1005
