03CFC7042
34207DF42
003EFC03A
300EC4106
2BDF3DFBC
3C00C7EF9
0810C307E
380F7CF80
00113F0C1
3FAF44141
1C0F3FFBE
344144144
03DF82006
243FBD03C
3420C0FFE
2FEEFF0B9
2060C1F3E
07CFFB0FC
386F420BF
3BCF3F081
1BD180F41
1850BC13F
305044F7D
001FFF043
3FC1C3103
000FFCEC3
33FEBF0FE
079E7F081
000042E40
241EFD084
0FAEBFFFD
038E83FFB
17BF7D000
3C11BDEBF
0C0EFFF02
3FF03F03A
1BFF8407F
3F8F43FFF
13EF83040
07FFC20C3
300F43E80
03CF02104
0C10FF143
17F042F79
0C1181104
