37AE8217D
13D0820BD
1FD0830C6
043146FC6
2840FDFC4
0C3083F80
001FFCF02
003F0013D
0820BFF40
044102FC1
3460C3F03
103EFF0BE
1C6105F3E
1010FCF83
102E83FFE
040040FFE
03EFC10C1
341F0717A
1BEFBF0C0
3BC0FCFFD
3C0102082
07AF82FFD
3C21FC0C7
383F02082
3BFFC2FC3
13CF01FFC
00513EEC1
10003B0FF
37FFBEEC2
0BCFFE085
3BB139FBB
00307E084
303FBC041
30207FF07
243001182
2C5FC2004
340142102
2C50C0F84
34000203E
3C2EC0FBB
0FF0851FE
3FF081101
0FFF84FBA
0B9046000
0BE045FFB
