1BE
17F
3FE
33A
17F
385
33E
085
284
17D
1BC
343
202
301
107
13F
3FB
385
142
0FF
1BF
2BB
087
383
002
3C5
3C0
07F
03D
0C1
040
083
302
0BC
383
0C0
386
0C7
1BC
104
000
3C1
3BE
087
041
1C0
383
0F9
341
301
280
0C2
384
07D
03C
3BE
384
3BC
081
1FD
186
346
081
37E
03E
13F
37E
003
084
0BF
341
004
0C1
1BB
03F
0FD
042
000
1C2
3C7
27A
13B
0BF
3BB
03E
000
043
1C5
041
145
342
0BA
0F9
3FC
33C
104
340
0BE
381
139
3C0
081
083
081
043
0C4
304
2FD
0C4
300
104
07E
3BF
3FE
0C1
3FA
040
37C
3C0
03D
0C5
03B
07E
184
0FF
047
0BB
306
13E
07C
0FE
03B
07D
101
345
