1000FC0FC003F
0081041FC103E
2000042FFFFC0
703F000040001
2041FC0FC003F
2040FC1041001
7002001FC0FC1
004204003F041
0FBF04004103F
000003E000001
007F07F081001
0001040000FC2
70BFFC007FFC1
7041042001FC1
103EFFE042FC0
7042040000080
007F04107F000
1FC2040040000
1041000040040
0FC2FFF081FFE
0001040FC0040
704004100107F
7001041FC0000
1001FFF0BF001
107F040080F80
0040FC000103F
000203F0BF03F
1042FFEFC1000
7FFF040FC0000
7001FC1041001
0040FC1FC1F81
0041FFF082041
2000082041FC1
704103EFBF000
0FC10BEFC2001
1041FC104207E
10000BE002000
0080FFFF81000
7040FFFFC2040
0FC1FC1000FBF
700200007FFC0
6001002FBF07F
1000000FC20BF
1040041001000
603E041FBF080
000104007F000
0002040001082
107F07F03F03F
2080FC1041002
207E03F041001
003F00200003F
0F80FBFFFF03F
7FC0000001F81
1002FC1FC0F81
