17EE80
04603D
18113B
14413D
342F84
3C2FBB
03C03B
100104
3BC13D
3C7FC4
004044
37D07B
3BF000
0410BB
003F3B
07D0BF
086F7A
0C213E
07CEC2
27DE81
34507B
0BBFC0
0C0FC2
3C3F3E
13B080
2FD0FE
3BF03F
07DF7D
379041
03FE80
3F9141
37E081
086F7D
1BFEBC
07B040
03D002
1810BD
03E0FB
37EF3D
37CFB9
30107F
0FE0C4
3C1FFD
37EFBB
0FCFB9
0FDF43
3BBF83
105FC7
3FF0C0
07E041
