3BEF40042FFEFC2
00307FFBDF800BE
042000082082101
33F0800C30000C3
03FF83FBF0BE17C
13C101040FBFFFB
043F82EFE07F0BE
342081FC1045100
3FEF01003F40F40
04003FFC503C0FC
001000EFE07EFC3
3FD0BEF4104307C
13FF3FFC1041F81
003003EC307D03D
37C0820C1F7FFFF
0800C3FBB083082
3C004007D0C2FC0
07C03D0C1043F7C
07F0FE07FFFCFBF
10113EFC1042FFF
080F7E0420010C1
3FF0BFFC0FC10C0
041F800BEF80001
3FEF00FFF07F0BF
100083FC4081FFF
3C2F42FC103CF02
0BE083F81044081
37EFC1043FC2001
380FC00BEF80FC4
3FFEC1F7D03F081
00103FFBF07D0BF
00504007DFC3143
37CFFC04103FF81
37FF800FDFBCF00
041040FC1F8413F
38103F07D03F001
040FC1040083F83
3C0F43FC1F43F7F
37D102F7B0430BE
03F10003E104FFF
3BDF7F07E040EC1
0BE0C3F810C00BB
042FC203F102FBF
3C007E043F80100
341F400800FFFFF
3C10800030820BE
3C2FFFFBF002043
3BE105041044FBF
3FFF800BF0FD13E
3C307D0FFF4207F
