000003FFC103F001
0000FC004104003F
7041040001FFF000
0FFF040FFF042000
7000040FC0FC103F
1041001000000000
0FFF000000040080
204103F03FFFF001
003F00103F001041
0FFF000FC007F000
707F03F000040FC0
1001041001040001
7000FFFFC1000041
1040FFFFFEFC0000
100103F00100007F
0000FFF001002FC1
103F000FC000107F
0FC0002FC1001FC2
007F040041040001
0001040000040002
003F000000FC007F
1FFFFC1FFF0010BF
0FFE040FC0FC007F
1042FC000000103F
708000003FFC0FFF
7FC1000000001041
2FFF080002FC0002
0000FFF04007F03E
104007F082FFE040
6FFF03F081000040
103F07FFFFFFF040
607F04200007F002
000004007F000040
0001040FC1001000
104007F03FFC007F
6FC1000000FFF040
1040FC0FC0FFF03E
0FFF03EFFF03E040
1001FC003FFC103F
007FFC0FBF001FC1
1FFF00003FFC1000
7001040040081FBF
1000FC1FC0FC0041
00BF00100207E07F
007F040040000041
7000FC1FC0040F80
103EFC007F07E001
70400000BF03E001
0041040FFF001041
0001080001000FC0
7FFF07F041FFF040
7FFEFC1041001FC0
00BE001000041000
0FFF040FC0FFF001
0001041001FC1081
0FC100103F03F03F
7040F80FFF03FFFF
0FFF000041040001
2041FFF000FFF000
707FF80040000FFF
7001FC0FC003FF80
107F040FC0FFFFFF
008007F03F03E080
103E081F80041FC1
1FC104000003F001
707FFC1001041000
