03A0FEEC2
3C207EF05
07FF42101
044FBFF3F
080002081
13D184E84
33E100FFB
344FFE0FF
001040FBE
3FEFC2086
004F45F42
00103DF07
3C1F81F86
37DFF907B
38007EFC4
2C5101FC0
37FEFA000
0C5F40F42
37F040004
084FC6E80
041082003
3C40BFF7C
2BE07F007
3BF00107F
07F004042
3BA0C4FBD
341FC0E82
3C503E0C3
33D045F43
083FC50BD
13F0BD07E
2C303F044
07D0C5185
3BBF800BB
07BFC4E7E
0C203C07D
03B0BA0BA
3FEF8203D
13F07E0BD
3B9EC0004
083046F83
1FC0020FB
3BEF43F42
3C10C107B
3C4100FBC
2C1FFA044
080F01046
082F8503C
3FF07D13F
043EC20C1
3BA13B007
302FC3083
181FFDFC0
100FC3FFE
