0FFF00103F07F07F03F
000203F00003F080080
0000F81000FC0F80000
0080000FC003EFFF040
7FFF040040082000000
1FFFFC0080FC1FC0042
003F000FC003F03F001
7FC0040FC003F080000
7001002FC0FC1001FFF
700007F040000000080
100000003FFC1000041
1001FC1FC0FC0FC103F
000007F000001041000
7000FC000004207F000
1FC0FC103F080040000
1FC1001FC004107FFC0
7FFFFC0000040FFF040
700107F07F001042001
0FC103F040000F82001
207F04003F000FFEFC0
100000107F000041000
600100004104103F03F
7F80002FC0040002041
0041F81FC0FC100007F
000003F03F040FC0000
700007F041000FC1040
20010BF041000FC107F
004103FFFF000041040
7001040FC0001FC003F
7F80FC00BE000FC1000
0000000001FC103F040
7040000000040041FFF
1F81001FC0FC1041FC0
0080041001FC2F81FC0
7040040F81001F80040
103F00103F04000003F
0FFFFC0FC0FC1040041
0FFF00000107F001040
703FFFFFC2041041FC0
7040042001FC1041FC2
008100100007FFBF000
6000F80FFF03F001000
7001080FC1FC2FBF041
1FC0001001FC0081040
1FC1FFF04000103F081
0FC1041040FFEFFF042
1FC1FC100003F0BFFC0
103F001FBF03E04103F
704108004100000007F
1FC0041000000041FC0
000003FFC003F041000
103F00000004003FFC1
