403B
2FFB
41BD
4200
B040
D001
E147
C0BB
0005
3FBB
EE86
313B
2101
1FFB
F1C1
EF02
4007
CEFC
1FFA
E078
A0BA
1FC4
E17E
4105
5F00
CFB9
EFFA
CF83
3046
E0BB
7F41
FFC1
E13D
1F81
2F05
41BC
4087
31FE
D141
2001
C0F8
DF09
3FC2
BF83
E005
3202
5EC4
2FFD
FFC1
FF84
00B8
223B
6FFB
E07B
B07F
D1C5
DEC0
9F06
D044
2FC6
F0C0
A03B
3F3C
BFFE
123C
0F82
4000
30FF
F205
0F85
2203
2FC1
