0BFE84
0BBF83
13CF41
3FD03E
041042
001F3F
380F02
2FEF00
1FFE7B
1BD0C2
2400C0
101F7F
3C1F80
3C0F81
1FC040
180FFD
3C1F3F
003F85
1FE083
305003
0BDFC2
302FC0
0BF081
100EC6
3800FB
03E103
03DF03
2FB07E
0BF03F
0FDF83
3011BB
341FFA
0401FB
383140
381082
37EF7E
144F83
181F40
08403C
07E040
2C4FC1
0400BF
0FF145
3FCFFD
0011BE
0030FE
03FF7D
0C003C
0BF13D
080045
