2BDF7D17E
3FC183F7E
004084FC4
3FA0C1FC1
13D041F84
07C001080
2FD000F7D
0030C1EC1
3C1001082
37EF4407D
3420FCFBF
3C30BEF41
381FC207D
1440430BC
03F0C0085
040F47FBB
3BA042EBF
3FEF4203F
000F0007C
3C103E042
07D0FD182
03BF810BC
042F4407F
27F040140
03EF820BF
2BC07E0BE
03C13EF00
0F9080F82
03C03EFBD
3C2143F00
0FF000FC1
13E0FB040
3C0FC4F3F
0850400FF
302004FBF
340040003
2C103D13F
244040F7D
0800FCF02
044F43000
0C4F00082
080EC7003
03F0BC041
0C0F02000
13F00303E
081F42F00
03F0FD005
03DF43146
3C4F800BB
343F02FC2
0BAFFF043
27DE82F40
0810451C0
07E103FFA
