0BDF02F3E0C10BF
3C308204103DF84
3800BEF410BF03F
344F80F8003E003
38403F081FC0F01
041FBC0FF0C0F40
07F0C4042084FC2
0C313EF81F43040
3C303C042FC1FFC
300003041F80000
03B07C04207FFFE
0000BD0C2F3F0BC
0C107B0C3044F40
143F00000FC0081
0C1FBFF8303FF02
380F7F04203F07D
040FC2F44F40FC0
300F85002FBEFC2
00103D0C4003040
33F002000FC3F7F
37D03C03FFFE001
0BF03DF00FC3EFD
03DFC2003F80003
07FFFFF8104003D
07EF84F7F03D03C
37C0BFFFC0BD0C0
0FF07D03FF82F82
2C20C20C1F0207E
0020C4F4104207F
3FF102FBEFBDEFF
002144F4104103F
300F01FC10BEFC1
081EC100203DFC3
1410C007F040042
33FF410BD08407F
3C1082FC3FFF03E
3C0F03F410FEFBF
38404107C004FC2
001045F820C2FFE
14003F07F07F002
07DFC00BF043003
040FBEF00F04FFD
10303D13EF7FFBC
3C0044040F400BE
3FFFC00C1F7FFFF
383FC1FBE03EFFD
303F41F7EF8003E
343104001141044
04017E07FFC2F00
042101042041FBC
