000E43080
0C108503C
18307E13C
0C3EC2F7B
002FC1F43
1030FF005
782EC103C
0BF0040C3
701F7FFFA
17F03CF44
7820001B9
144F43FBE
0C30C6144
17F13F13F
100E8107E
6C40FD143
07CEFFEBD
7C00C5FC6
23907F042
67C04103F
7C3100EC4
77F0801BE
040F82FC2
77D13B100
74303DF3C
0BA13A041
7C0040F00
07E040F04
1BFFBE002
08310307F
77F13F101
784F04082
7FC002E83
040F000BE
67DF80EC0
6C303F1C1
67F0010BC
743041F01
03FEBF001
7FCF81EFB
701E44EFE
03F0050BE
0C5000041
0010BEEBB
7BD1C1F41
