0FC1FC0FC0040001
0000FC0FFF03FFC0
7FC000003F04003E
1FC0041FC0000FC0
7001FFFFFFF81FC0
707FFC0FC004103F
1F800BF080FC0040
000004007F03FFFE
0040FC003F001FC1
0FC0040002001FC2
1001000FC1000FC2
0041FC007F001001
0080041FFFFC2081
0001000000000001
0FC0001000041041
7081FC0081000000
7FC100100007FFC1
1040FFF03F00003F
007FFC1FC103F07F
107F00004103F040
1040FC0FFF040040
000104003E000FFF
700000000008107F
0001042000FC0040
0FFF04000103F001
0FFE000F81FC0FFF
1041FFE03FFC0041
1FC003F00107F041
0000041000FC0FC0
1040F8103F040040
7080000FC2040080
004104100103FFFF
700003E002000000
0040001000041040
0F8203F000001000
008004107F04007E
000007F001000081
0000FC0000000FC0
604003F03F07F001
107F040001000002
1000FC100104103E
10400BF000001040
7040FFFFFFFFF000
7041001041041FFF
7000000FC100107E
200008004100203F
1081FFE00007F000
1FFF0BF040000040
6FC0040F8003F000
004103F00107FFC0
0040000FC104103E
103E040FC0FC0040
7041FBF001041000
6040041F81041FC1
70000010010BF001
607FFFF041001FC0
103F07F001001000
0001FC1001040040
100004003E040001
103F07F001FC1FC1
7000FFFFFFFFF07E
1FC104007E042FFF
7040FC0FC104203F
1FFF04000000107F
000003F000000040
004004100007F07F
