13F08617B
3C3FC0F42
0FBF800C4
1870BCF80
302F7EF7D
140105FC2
2C2F82F3E
040E7FFFF
0BDEC6E80
3030C2F04
13C17C041
0BDF4217E
102042FC5
0BB1050C3
000182F42
13F005FB9
3030BDF84
27DF7D07D
00108307F
17E0C003F
2410C4039
3FF083080
3BF07E0BA
2C0FC6F85
1880B9EFD
37CFBEEC6
3FE03F0BC
3C1EBF03C
2FFF021BF
2FC080F7F
07B105F3B
0B9101EFA
0FCFC0FC1
13EF410FC
0FB083079
005003146
17DF3EF02
139146005
0C4083F40
03CF46081
08203F0C1
3021410C1
28507E001
0FEE440BD
3041FC080
