013E
E0FF
F102
6002
3146
907B
D081
F13F
0100
0EBB
A040
0043
4FC0
2081
DFBF
1F47
00C3
DEC2
1082
2F86
013F
0040
1F80
107F
30BC
EF46
0F7D
00C6
C103
1039
0F3F
9FC2
F039
EFC5
61BF
107A
507E
0046
C03A
D0BE
3FFE
0F82
1039
D03C
5FC3
3042
CF82
10BD
E004
2FBD
203D
CF85
2140
D0BC
C0C4
1044
D03A
FF7E
E1C1
EFFE
F142
1F7E
1080
EEC3
203B
FEFD
F101
3F02
EEC2
FEFC
D043
FEFD
EFC5
4185
E001
E0BB
1F7D
1FBA
F17C
D0FC
1004
5000
FFC5
1FFC
3FBE
1EFE
0F43
013D
0F41
0101
003B
0046
1FFE
3000
0140
11BB
D001
5041
5F47
DFC5
607C
1E82
013F
DFC0
2044
EF04
CF40
E001
