2C008203F
102F44F39
03F03D0FF
0800C00BD
106FFC03B
37D13AFBF
03FF400FC
3C007FF80
17B0BB0FA
13CFBD003
03F0BF03E
3FE187EBE
381EFF004
0C11BCFBD
003FFFF45
142F3B0BF
1850C1F7D
28007E085
0BFFBF13A
141EC1FBC
0C50C5006
3FE13F0C3
0430C61BC
3BFFFFF40
181F82E82
383EBB103
3BE0BE03E
083EC3004
2830C3FBF
383004F42
33DFFC03C
085FC1180
085041FC2
0FE07B043
3FC00413F
0FCFC0001
03D00113E
33BFC1083
002EFFF81
03A1C0F81
0C10FEEBE
3C103EFBB
0BD03D081
37D0FB17E
34003C083
03D13A0BE
303FC503C
37DFBF086
3450BD082
000FFCF86
07DF42142
301041141
2FF0810FE
3020BB03F
