70BF000040FC0
1FC2F81000041
007F07F040FC0
707F03F002000
7FC0000000001
1FFF041FC1FC0
6FC003F082FFE
7F80FC1F8003F
107F001001FC1
1FFE03FFC1F80
107EFBF03F040
1000FC10BF081
2042040FFF03F
10410800BF07F
008103F081F81
103E03FFFFFFF
107F000000000
607E080F80FBF
1FFEFFFFBF03F
2FC004100107F
0040040040FFF
7040040FC2F81
0000080F80FC0
0080041000FC0
1000000041040
0041FFE03F001
003F002040041
204104203F000
7FC2041001FC1
707F080080FC0
0000FC10BFF80
707F07FF82000
700204000003E
103E000080FC2
00BFFC1FC0080
2040000FC1FC1
0FC0FC007E001
703F07F07F0BF
0FBFFFE03F081
2080FFEFFF040
7F8003FFFF000
0040000FC0F82
1001FC0000001
703FF81F82040
0F8007FFC1081
0040FFEFC007E
0FC008203F002
103E040FC103E
004104000103F
00000800BFF81
2FC1F80080041
1041000FFFFC1
0081F8100103F
0FFF000FBFFC0
