2FF
0C2
33A
387
040
3BE
382
0BD
07F
300
33D
0BC
044
042
13F
3BE
2C4
3BC
03D
382
07E
3FC
140
000
101
3C0
303
302
3C3
0BF
301
2C0
341
07E
3C1
2C2
142
341
13D
243
240
2FF
3BF
142
03F
1C6
37B
3C1
2FC
305
3FE
082
0FB
041
003
3BF
300
07F
2C0
340
001
3FF
346
181
301
341
1C2
042
185
300
003
3C1
384
181
142
083
2C5
041
2FB
041
2C0
045
144
1BE
000
0BF
381
0FE
383
044
13C
0BD
102
2C0
3FC
33D
07E
03F
0FF
300
