7000FC1FC1042040
1FC0FC0FC1040001
700003F000000040
007EFC100107F000
700000003FFC2001
0FC000000004107E
7040FFE0BFFC0000
707E07F00103FFC2
700103FFC000107F
003F002042000040
1F8100100000003F
1000FFF001001001
0041FFF04003F042
1FBFFC1002FC1000
700004108008107F
0FC0040000FFF080
7041FFEFC0FC0FC1
004004107FF81FC1
1FC007F040000FC1
0FBF03FFC0FC003F
0001081FFFFC1040
7FC1FFF03E041FC0
1FC0040041FFF040
7FFFFC1041FC0001
0040FC0FC0040FC1
000000107F000042
0001FC103FFC0FC0
10BFFFF03F080001
007FFFF041041FC1
7FC0FFF03F040FFF
1001F80FC003F002
107F001001001000
000100004007F001
1001000002001FFF
0000FFEFC1001041
0040002FC0FC2000
0FC103F03F040000
7040000000FC0040
103FFFF00104103F
003F03FFC0000FC0
0FC0041040040FFE
0FC1000001FC1040
103F03F041040FC1
2081040FC0FC1081
1FFFFC003F00103E
100107F03E000001
7FFEFC0001040040
707F040FC1001000
700103FFC0FFF081
1040040000041FC1
0FC000004000103F
7080000001000040
000100103EFC003F
1FC1000000040001
0FC0001FFF000FFF
1001041041000041
703F001040FC0FC0
204107F041FFEFC1
7FC0040001000FC1
003F000FC003FFFF
700000000007F03F
0FC107EFFF040FFF
1001041041FFFFC2
7FFF00000103FFC0
7FFE001FFF03FFC0
104000003F001000
