1E42FC1
D13CE80
EFC007B
E00117E
1F83F01
3043107
1E82046
D043FBC
C03AFFF
20FA079
F141FC3
FF42F39
E07FFC4
DE8407C
11C3F80
003F0BE
2F46FFF
4F80FFF
E0C2082
EEBC142
0FC3E7F
10C01C1
3082F7F
6FC3184
7F05F81
A0FD0BD
A0C6040
2EC0045
F0C303A
F1BFEFF
FF81F06
2FFF045
410103E
5F3EEC2
50C1F42
FF7EEC0
B1C4FBE
607E1BC
00C107C
4F84101
FF7DF80
1F44041
D03D03F
D0010FF
3047000
AEC103A
3FBEFBC
EFFB082
AF7FF84
3F3B184
