00083
1FF7F
1FF3B
00183
08FFC
05106
1B03E
1E13E
010C4
1B082
020FC
1EEBC
1F1C1
08F00
0003F
0307B
1EF3F
03F47
0007A
02082
1E082
08179
1E07A
1C002
1EF83
1A0C2
1D042
1C084
1EF01
06EBE
06FFB
1AFC3
000FA
04F84
19F86
1DEC2
1FF80
1FF42
1AFC0
1A004
1B043
1CEC0
01082
1F005
1DF40
02E3C
02EBD
1FE40
1EF02
04F43
04F3F
1D042
1F0C1
0613E
04142
02F7E
01139
03FFB
1C143
19144
1C203
01F80
01F7F
05FBD
1CF45
1F07E
1F083
19F82
1E0C1
05F7F
0007A
00EC0
