700107F04003F040
200003E000041000
707F000000FC0041
703F07E03FFC2FC0
7001000F8007FFC0
7081000F80FFF03F
100108003F000FC0
0FC0040F81041001
0041FC107F000F80
7041040FC1080000
700004100107F03F
70000BF041001042
1FC004000003FFC1
0041080FC1001000
7042001042041000
604004004104003E
7040FC003F041FFF
703F07F03E04003F
1FC2F81FC1000041
004000007F03E03F
0FC000203F001FFF
10BFF81F8000003F
707F03FFFF002000
703F001040041FC1
7FC004107FF81FC0
0FC107F00103E03F
604003F081FFF000
1FC0000FC1FC207F
007F000040FC1040
1FC000000103F03F
7002FC10BF040FC1
0001FC0000001FC0
7041080002000040
007FFFF000040001
003F04008004003E
0000FC107F001FFF
000004100107FFFE
000103F03E000040
000007F001F80FC1
003F00004004007F
700107F00003FFFF
7FC000003FFC003F
107F00103E040FC1
0FBFFC007FFC1FC1
104000000007F000
704103FFC0FC2000
0FC100007F07F07F
0FC0FC0FC003F001
0000FFF001040000
700000003FFC0080
700100007F00103F
000100000000003F
0000FC007FFFF041
7000FC1FC0040FC0
2040040FC1040000
703FFC0000040000
7FC1080FC1FC0040
004003F001001041
0FC0FC0F81FC203F
0000FC0000000040
7FFF040040FC0001
200000007F001041
7001FC1FC0FC1041
000203F03F000FC0
0FC1FC003F03F041
0FC1041FC003F07F
