345002
140043
3FF042
0000BD
33DF82
28303C
044FC0
381FBF
3F907F
0BC0C1
000EC2
3C3F40
082084
0BDE80
00307D
3C6E7C
041F82
005F42
07CFBE
0C2042
0C1141
0BF044
001101
101FFF
33B0C2
102FBB
141F7A
33B145
3BB17C
33EEFF
083FC3
3C20C0
3C0104
004F85
141F39
2C3F82
184F82
37CF7F
33EFC3
083081
103FC2
07EFC1
0C00BE
105FBC
341EFD
140143
1460C2
08107C
0400FD
0FC040
