0BDFFF07B03DFFF
380EC0FC0FC0F3B
340F840BC0BF0C2
0C104407C03EFC1
0C2100F4108113F
03F0FF08014513D
33E042FC1FFF041
044FFDFBFF8117D
0010BE003EC2F81
03E0FFEC1F40FC3
082FBE04008103F
041F41FFE07EF7E
0C3003004F84042
08103D03D13F040
381F7F07D042FC4
0BE0BFF3F0BFF80
3C2084FFFF7C041
3FF0820C0FFB043
3FEFBF1400FDFFF
07F0FF041FC1FC1
0BEFC300017D07E
0C0F8217F081FBC
002F40F84EC2EC0
100F41F000BDF41
3FDFBEF84F820C5
003082F800420BC
3FF000FFF043F01
002EC2FBE13EFC0
03E102F7FF7DFFF
080042FC3141F80
3BFFFE141F7DFBF
0C3043FC00810FF
3FEF7EFFE0FFF7C
3C0FBEFBBF82F80
0BCF7E17CF03FFD
0BFF0103CF82043
13CFFEFBFF7EFC0
3BF0C3EFB03F080
301101041F410FD
040F41042FFDFC4
37E00507DF80F42
0010C1F80101105
0C40400BE0010C1
0020000C10400BC
0C30BF04203E083
1010BE08207C0FF
002F830FBF7D0BF
081001100002F80
380FBF040F7CFC3
0820030C0FFDFC0
